3E1C9C69 BEE21099 3ECDB3A1 BE4BFA8A
BDEDA1A3 3E84E21E BE98500B 3EB29EF5
BED1A1F1 BE15ECDE 3E883EB6 BDE590AD
BD3ADC55 BED62F3A BE813D7F 3EFB579F

BEB0FDCB 3E8FCB7F 3ED7AC46 BEE3E505
3E1AC467 3E37279C 3ECFF7A1 BE47FFD9
BE8634D3 3E90EE5A 3DB08A2B BE9234FF
BDBCBF18 3E0561B4 3DAE9523 BE48A126

BEF39AE4 BEFDCF86 3E8791E3 BE5B8EA8
3D948684 BECCB865 3E7ED496 3EBE340F
3C98A30E BEE6FBD9 3DF19AE4 3E643BC3
BE8D07D9 3E661B46 BE818598 BE9321E5

3DC41BB5 BEFA12F8 BE80CB88 BD8376DC
BE5DA415 BE32286F 3D3D5DC1 3EC93AEF
3DC7973D 3C62F6F8 BE3A5CAA BE7EBECE
BEDB268B 3EB7B000 BDCD52B7 3EF69874

BE513948 3E8A4729 3EE3DAB1 3EC11DBA
3DD9C0FB 3EDB94C8 BC16C536 BEADA60C
3E381821 3EE01AC3 BEFC2A08 3EF94164
3EE24E38 3E12BCEC BEA02DED BEF27EC3

3ED08D7C 3D9A4E6F 3D1EDAB8 3E3E6F1E
3D994FAC BE4773FC BE97EF73 3E5E094A
BDFD91EB 3EFADD24 3EFFF343 3E09FA44
3E93C87B 3E33A544 BEF3E3A1 3E85BABA

3DC4024F 3DAFCAFB 3DE06B44 BEC5A068
3E36CDC9 3EE33386 3E9BEB55 3E9BEFAF
3EE5343B 3D190ED3 BC927224 BE6F6129
3EB12C92 BEE4D292 BE512EDA 3EE27203

BCCC18B8 BE8FF49C BECBFBD7 BE6A644A
BE3007E3 3EE8F437 BDD2E5CF 3E945FCC
3E21AA58 3D0FFEA5 BE7D3470 3E56949B
3E9B6F02 3E4B9712 3EE6CF34 3EF93939

BEC1F34A BE7B6F8D 3E24671B 3D029ACF
3EF8F813 3EC784AF 3DA00A71 3DFE66C7
3E6E73D8 BEB11CA6 3E1BE506 3D0122CE
BDF71CE2 BE84218A 3EF3537E 3E5DED0F

3EA1173D 3EDDA73C BE93AC1F BEA6844C
BE9D359D 3E0D1A26 BE081D55 3D732173
3E80D0EB 3CC30642 BD92340D BDFF76CA
BE847BE6 BE980D51 3E06F518 3D529CFE

BE469505 3B657D8C BEA416BE BEF621A0
BEA82B01 BC582BB6 3D98A714 3DF52B38
3E869FA1 BE8DE9B9 3EE0A101 BEF0716A
3D602FCD 3E37708F 3EB76A40 3E849C69

3E2C88C6 BCEC6118 3EF7B30D 3E1A8DF9
3E2190AB 3E6DEDF5 3D18AE8C BE8A089F
BEB2A774 3E37D699 3E854982 BDF6FA55
3ECACB6D 3EB34BDA BE1504F7 3EFEF349

3C4447D0 BEF3BDAB 3C172675 3E5056D0
3EADFDBA BB566A67 3EA6CD80 BED62B5C
3EB12766 3EDE493D BE017880 3ED7EE2B
BE9C23A7 3EE92790 BEEC157A BE71D42A

BE88A34E 3E28B534 BE8B5AA5 3E1536C6
3EBED7FD BE7DCA85 BEFA745F BDF08DBB
BDF43B76 BE37E1D0 BC27ECB1 3ECBBCC7
BE6CDF95 BE74BC81 BE030F39 BE3C1383

BE99BBE0 3EE2924A BEE516B8 3E4FFAFF
3E92070D 3EAB11B7 3EAF0BD9 3E5E0F98
BE549684 BC5ACCDC 39E3E006 3EAF764C
3EB741E0 3E57C2E1 BEEE664B 3EB9D7B1

BEF970FD BEB59512 3EDF280E BDB730C5
3DDC671C BD9F8C0A 3E8E1ADF BED305D0
3E4D19BD BE708E91 3ED61950 BE47D548
3EA836A2 BDDA3D57 BDD0E1A5 3E97F4F6

3BC96C1F 3E866F28 3CE484FB 3EE8AFD5
BEBD7BC8 BDFE572F 3EB137AA 3E28C408
3E80D9E6 3EF18B06 BD8C1391 BE40BACE
3E6AD01F BE46C5B6 BEA46609 3E914300

BED7942A BE9800B2 BE0CE33D BED729C4
BEB8305E 3EB5281C BDA902E1 BE74D365
3E60D469 BE61D8AC 3E395196 BE1F4418
BE3EF6AD 3E875572 3ED32C84 BDBC3137

BE780B40 3D97AED0 BEB8438E 3EDCAAF1
BC78D001 BEA74583 3EC11D4A BEA43AB3
BE425362 BEDF9586 3CDB48B3 3EF88FCA
BD33C50A BC1DE8CD 3EE5000B BE94CA50

BC8AB5DF BDD0D9E4 3E6C3552 3E4912C3
BE8EAF6F BD5AA29F BEC13BF6 BEB6777B
3E68BF15 BE70C8F0 3D202751 BE815E3D
BECBCA93 BE3AA8DB BD0F4857 3E0C44C9

BE3AFCF6 BECDEE7A BD9C6CE2 3E7B2B3D
3EDF6CDE BE704B02 3E2F7DF0 3D1AA2CA
BD580565 BEF88AE1 3E32377D 3DBBF386
BEB4531D 3E36D4CE 3D2B2134 3D80ADCE

BD1137CD BC9DF6E0 3E209787 3EC9B3B1
3E98AFBD 3E8F48D4 BECEB100 3E4740E8
BD93570F 3EA1A77A BECAC239 3ECFC58A
3E2C4BC4 3C8C0BD1 BE252738 BC18B44D

3DC96198 BEC3EFDF BEC87F2E 3E225F39
3CB7410B BE893940 BE56DD5F BD904C68
3CFB20A7 3E3F3C49 3DF8AB76 BD7C1EA8
BE584436 3EF1BFF9 BEFC3498 BED45D71

3EF9354A BE311CF1 BEB6B070 BEDB060D
3D43E889 BDA33B43 BE8F075C BBF1B754
BD8DDD1B 3E304E62 3E953AC7 3DA840B6
3ECF52BB BD0AA1BA 3ECDEAB6 3D787D23

3E2C705F 3EAC169D 3ED6F742 3E4FE00A
3E615AE5 BCC47F95 BD890C44 BE09A7F5
BEE12FE1 BEFAF8C6 BDF19AE8 3A542687
BDDE3C74 3ED05384 3EBEB0E7 BEFBC58E

BD730A78 3EAE9157 3E476D50 3E9C6EAA
BE95558F 3D16E168 3ECF51A7 3E4287F7
BEFD3ADD BEDF414F BE48B84B 3D72808A
3E86A7E2 BE6993C6 3E657295 3E8BE976

3E48B53D 3EC9F9C7 BE563A75 BE9D8F82
BE8F0E3F BEB234C6 BDACC73B 3DDBCF6D
BE9B0E4D BC13F2B0 BEE4E16B BE2FA774
BD20700B 3EDA0C87 BDC13FCB 3E24BE2E

3BFD1996 3DF4E2F0 3D47D320 3E57C483
3ECBD8D4 BEDF73BC 3EDE335B 3D93FB0F
3EADF847 3EF57CD1 BEF05FDA BE4B5137
BE6077AD BE8D10A9 BE3C9048 3E75A0D0

3EB43A62 BEAD19E8 3DD70AAA BE87EFD2
3E71F48E 3EEFDA37 BE678692 3E8A8F84
3EB7EC3C 3EC43B98 BE3CB275 3E86809D
3E4EDD27 3E43ACEB 3CD982E0 BD8AB336

3EB6F23A BCC32571 BE8EFA18 BDD4243C
BEC65239 BE0FCCDF BE9EF75C BE9C8700
BEEDD103 BD76AD9B 3D3B1F82 BEB7BCFD
BEF4E0A0 BED8428A BEEB397C 3D231B75

3E802F7D BE245054 3E75E267 BE947E03
3D45ABEE 3EB8B3C1 3D992334 BEA0F5C5
3EA0D96F BE97A2B4 BE4FE242 BE0F4A6B
BE5CF8C3 BC8671AA BE95AE9C 3EB9A60A

3EF8FF71 BEFC3D9C BE76110A BDB5A864
3D5AC3B3 3EC48BD7 BCE32CA6 BEAA89A9
BEC0FC98 BEE4FD95 BEC54632 BEDAD3F7
3D2AEAC1 BDC53209 3EB3DF95 3DB3C99F

3EB23CA2 3E4A57D7 3EA86EE4 3D98927A
BE32D880 BE12CD22 BE7416D3 3E02E692
3E160F21 3EC76BD0 3EBD7DBC BEBD99A5
BE9CDB08 3ED652EC 3E716A3E BE6B63AE

3ECE147F BE9919FA 3EE0346A 3DF618FE
BE80B270 BEB304F3 3BCA5073 BEE4FBB1
BEFD5628 BE74DDE3 BEB5FB29 3E9159DD
3D67B25F BE0A32C7 3EDA12CC BE8787AB

BDAE7880 3E6BBE2C BC47DE3D BEB0DA47
BEA0071D BEB2F90D BEEBABE9 BEC697B1
3BEDA73B 3E5C6040 3EB0486D 3EA6A009
BE7D3B08 3EED2F9C 3DA535C2 3CDEDEB1

3E7DB209 BE15E909 3EC8CD6B 3ED7E566
3EEE7032 BEC8BCE6 BDE9995F BEA20043
BECA420B BEF7373A BE6BFD4D 3ED224E7
BE0D00F5 3ED670FE BEB8C0A9 BEA0E041

BEF5A30D BEDEE78D 3E2D4E32 3E3E6D60
BECA0810 BEF23392 3E00EAEB 3DD886D4
BE0187D6 3E616AA5 BDB5C96C BDC2C285
3E261B94 3D81510D BE1FDAC1 BCFF6B12

3E0CB466 3E843333 3E5581C9 3E7E439B
BE2C588D 3EE4533A BDCE723F BE86FB94
3EB2A201 3D9BA86D 3DAB45A2 BEB60F49
3E5BA491 3E716AF2 3E30603A BE3BDDFA

3E2CD9C2 BEB0C735 3CB9D15B BE446654
BEFEAFDE BEFA21E3 BE890015 3E09FCA0
3E9CAA68 BD0B281F 3E3D2B96 3E0CDA56
3EDE21CC BEDBA170 3C90048E BE9BABE1

3E291E17 3D8FB8F7 3DD32AED 3E92FA53
BBB0831D 3DE0F8DF BD049D34 3CB240E5
BC582A16 BE2268E4 BE2E8BDF 3EA2530F
BED1ACBB BE7C9639 3EB9FB02 3E8E6817

BE66C6EE 3E58D113 BEC2D9FF BCAD9A28
3E8B7CF6 3CC4B5FC BE6F5844 3EF80E97
3EFC886B BC7131C8 3EB231DA BED5A827
BE998DC5 BE5F0D4A BDF624FD BECD4481

3B96A9C2 BDBAFA01 3E64EE52 3ECC0C5A
3ED43312 BEA62F2B BE655CA8 3D2A824D
BEE25106 3E390621 BEF6E87E BEBC6451
3E46F20D BEF3F101 3CFDA12E BC379802

BE782597 BE6DCE92 BE114CA0 3E941735
BEBB991A BEF5E39D 3DE015AB BE433462
BEEF2DB7 3E0EAC03 3EB5CB5F BED5F0EB
3E05B5E0 3E14895C BEBAEFA8 3EE254E7

3EFD695F BEE224F6 BD1A689B 3ED5D1B6
3DE089D1 3EE58EE6 BEA07642 BD9F2F77
3E9FBEB5 3EE13EA0 3EDB4893 3E4030FE
BEEAF525 3EF46CB4 BEA0367C 3DEAF8E6

BE45B7F3 BCE63DAD 3EF96EF3 BE19B86C
3E8F9B0B BC3ABB0D BC7D73C0 3E8EF170
BD1E8788 BEB7A691 BD7BABD5 BEAE2BEA
3EB92801 3EC8B562 3EC530D5 3D467E07

BE8DD0D5 3ED1C6E2 3EF03F78 3EC12AF8
BCB8EB5F 3E9D2BDB BEB284FC 3ECBD4C5
3E7086DE 3E796E9C 3C87FDFA 3D2D840B
BEEA32DD 3E8CB7EC 3EE85928 BE21C292

3EBEC734 BDCB0B5B BEA4FC0C BEA6F866
BE725D31 BEF0C017 3EDC699F BE02081B
BEC2D0F6 BEB946A2 BEE80A41 3E094C07
BEE01513 3E0D790F 3DD79C23 BEA1AA07

3EDAB686 3EAAB53B 3E64B97A 3E9A6D58
BE095306 BECE64DF 3D0628C1 3DABDF93
3E24E163 BE8177BC 3EA29C11 BED7777A
3DEBD558 3E1983AA 3EA63565 3EFA87C8

3D85EF5D BB7F461C BEAC02BA BE405D03
3ECD9306 3EE961C8 3DF0DF33 3E3A90DE
BDF441BD BE4AB2FE 3E83AFB8 BE85F288
3EB718C5 3DA2D03C 3E6945F0 BEC9C146

BE0C2FD2 BE6D3CA5 BEF3C3C0 3EFFBFD3
3C0ED35C BDB3A982 BE6F8042 3E8F674A
BE5809D7 3D86EA86 3DD35322 BE18BBE4
BE845B77 BD37DE63 3ED7E216 3BD03309

3980D590 BE41A58B BCCCB2AC 3E6F5B92
3E873874 3EDFA1A2 BEB2FF96 3D998CE2
BEA33004 3EE7093A BEF25B45 BEA01994
BD4F7C68 BEB22BBD 3C9968F7 BEF3207D

BD8AE8D2 3EDCEF50 BEF2CF38 BBBB3F8E
BCEA2801 BEB92F91 3E6671AB BE1C1963
BEBCD917 BE4E3087 BE6FAD74 3E4E2B0C
3E171AC7 BC515867 BCF8798C BEACD964

BEFFDF7D 3DCEECE0 BECC4FFB BE8DD535
BE2E5001 BE8FB472 3EA40D3C BE9B8E41
BE90FEFB BE66FA5B 3E2B26B9 3EE2D72B
3DC2454D 3EDDD249 3E9E113D 3E3C1A31

3EA90334 BD915A22 3DC23C3F BE5FAA5D
BD1D7AA6 3EF4D268 3E4E0977 BE30E223
BEE98E93 3E7DF796 3E7358DE BE97A094
3DE00445 3C19B1AE BEA6EB28 3EA941CF

BE78FEFF 3C40AAA3 BE8EAF70 BE7A01A9
3EC81813 3E5B9E88 3E8A681D 3E407CEA
BEB4C586 BEB6374A BEF0F8E6 3E91F24D
3E026E5F 3E3E90C1 3ED4E06A BE293BE8

3EA81D47 BEEB1A86 BD040A6A 3DAAF0D3
BE7DF777 BE8421C0 3E52C017 BEA06C02
3B0ABEAA BEBA2505 3CF75A56 BE65E92E
3E7F40B6 BE987C84 3DF60D7E 3E1F0D34

3EC1467F BE0A421D 3ED710C1 3ECD5848
BEB6279F BEBF6B26 BEB83A97 3EB1EFA1
3DB97124 3E6F965C BC9754EF BD4C1705
BCC9F9CB 3E4CFC83 BEDEC5B2 3E640A2C

BE493300 3E322431 3EC5C995 3EF97AAC
BE4D1CBF 3DFFB945 BE62AF51 BDEE5B0F
3D326A8B 3EFD88A3 3DF69F85 BE819772
3DCCAF50 3EEECD4C BEAC66D6 BEA0D649

3E92EFA5 BE793167 BE589E5D BED9F8B8
3DF829F1 BEC857EC BE6CC612 3E456290
BE1D86F9 3DD578A9 3D1D5643 BEFBB125
BE055472 BE88F947 3E1309CC 3E798BAA

BD73ADCB BD8A9C6C 3E938C65 BEB313EC
BE83D35D 3D42D422 3DE5F533 3E84BAFD
3DDDFEBA 3C971E3B BCB0DBEF BC24020B
BE9143D3 BDDBFCAC 3EF5F4F4 3E2F4847

BD1FF775 BEB8EDDF BD239854 3EF9A2A6
BEB4ECEF 3E79B92F 3C9E6227 3E1E1327
BE059F7E BEE50EAF BEE185B2 BECB8E69
3E94A236 3CC75AB2 3EEA371D BE64EFEE

3EC5C64B 3DDA77C0 BEF32841 3EAD2FD9
BD6492B0 3E6F4817 3E091C0E 39890A58
3E53ECAD BEEFA4B8 BDE2D1DB 3EACD861
BD5D97E5 BDD20E60 BD093331 BECB778A

3DE08321 BED1E604 BD9926BB 3EF5E3DE
BEB60D65 BEE1A038 BEE41072 BD96F550
BE2AEEB8 BD8DBF33 BD73D9B2 BEDBA96C
BD93A37E BEC423F6 BEADA4B2 3E9E4D3F

BED109E6 3E3FE06C BD5A2B84 3E26213F
3E8FBDDE 3E655FDE BDBEB924 BE31D5A2
BE499B1C 3E7744ED BE930958 BE24E3DD
3EED18AD 3CBC81B4 BD1BFA73 BE535DAC

3D1A47CE BD926783 BEB3BD78 3DC64FA8
BDECE92C BD00F700 BE66EC9D 3E5FCBD5
3EE0CBA5 BEA00406 3E8B6E1D BE053014
3C2DD0D1 3EF089AB BD961391 3E6CFC94

3E5D8335 3E8CD76B BE81CA03 3DB18C45
3EB89E7C BE7B6D96 3EAD1CE8 3EA24BFC
BE6E8377 3DA0B10C 3EB5898A 3E0F36D6
BEC31249 BECF285A 3E26C312 BE79D3D6

3EE6C397 3E33AE1E BE96B3B3 BD177390
BD64989C 3E321F6C 3E1D9942 3D83CBE8
3E78ACFE 3EDF3521 BE0F391B BEA94EC0
BE27F123 3D379965 3EDB8DCB 3E0D91A0

BD106E0E BEF0AFC3 3EC6DD67 BE61E33F
BD31A308 BE9E5281 3D3B9E98 3C9A3669
BE3CF66B BEAF393B BE6E6C59 3EC1EF4F
BEF09C70 3E30CA35 3D0E30E0 BE9BA437

3C085F9D 3E185030 3E9B7EF8 3EDD947B
BEFEB35F BE8F623C 3EF77877 BEF4980C
BE375C6F BE96BE36 3E30E83B 3D73D08F
BEAA66B9 3E633FCF 3E245146 BE65868D

BDBAEB9C 3E5C35FD 3D8B0A2C BEC1F799
BE9A6441 3EB1A382 BE9016EE 3E50F7AD
3E2D506D BEA3F0EE BEFC6944 3EFF05B3
3ED79420 3D669FFB 3E8929CD 3E853649

BEDCC5FA BBF7FFBD BEC1C305 3DDE01B8
BCB61873 BEA2702F 3EBFF8DF BBF7245A
3ECE2AB3 3DCABC47 3E283B9B BD61810B
3EEE1274 BEE7CBCF BEAB51AB BE878ED0

3C952109 3E2366D7 BEF547BB BE108D5D
BEA39AC0 3D995EFB 3E88051A BE8480D0
3E78CEE8 BE06A064 3E34DF82 BE6BE745
BC5D733E BC19493D BEF70AC9 3EE0B1F1

3E88EF6F BD8E2C4E 3CEA33DE BD816EF4
BED5FDF3 BEC86C9C BD482C95 3C509636
BE26075C BE344B3E 3E346C06 BDADCBD8
BEC8733D BEF87640 3E94C449 3E954805

BEA4E804 BE6F303B BE92A5D1 BEDCB9A2
BE3CB677 3E8A6D97 3C9902A6 BCD157D1
3E3FB797 3E3CD605 3EB6EAB8 BEB34416
3E8A6504 3E4E0030 3D9D9053 BEFBA901

3E8E6F2D 3DC7E9F3 3EEF9B0B BEFF6D2F
3ED468F5 BEBF5E4F BEA58C2E BD9D04BA
3E4590DB BE603825 BC230B40 3E01EBCE
BE1104C3 BEB53F10 BE685FC4 3E87B8D0

3E80FE3E 3EC204AD BEA9F3F6 BE9B26E6
BE151396 3DAE2534 BE566CBE 3E36C3AC
3E2408FC BEDF9ACC 3EE36269 BE1288AA
BEB8DE88 3E313365 BEE2E67A 3E97C0D0

BEDA84F5 3EB7021F BE999F51 3EF6B739
BEE2C684 BE96A557 3E3A4693 3EC26BD4
3EBE4915 BCB4F91E BC2E60A0 BD0A3B35
3E8D7AEA 3EFF1E68 3DB71539 3ECEC365

3E814E75 3DC97172 BE62A8C4 BE8F5444
3ED1DB79 3E6071AE BEC7089C BED169EA
BE8B4594 3B896538 3D9A5973 3EC2FED7
3E8E5635 3E076E5B BE09E533 BECD4AC6

3C94F253 3E71FB71 BEFACB9B 3E8EE486
3E8EEE52 3EA3A50B BE30DE97 3EF14779
3DC6AFBA BEDD445F 3EBEEDFA 3E97D07A
3E1B4E94 BDBADA80 BDB0B5EB BDDF580A

BEC292C9 3EE3718C 3E237C04 BEB3AEFB
BEDA7E23 3EA24E64 BE4AD30A 3D71B586
3EDD4DA2 BBE1E6E9 3DF9CB19 3E2C7D2D
3E28832A 3EFAC093 3EBC0E1C BE945F72

3EC645E3 BE6A47F0 BEC2CA0A BE942AB0
3E582330 BEA1688D 3E89ABC0 BD7A931D
BD37424D BE719CBE 3EE64FF8 3DC39924
BE7C99CE BEAFD199 BED94F26 3D228FFF

3A7AC2FA BE23B8B9 BEDED262 BD57BB5A
3EC6E636 3EBAED2D 3EC567FB BED6B307
BEA913AA BD4FC0F3 BEABF467 3D939C6A
3E9F1936 BEE763A0 BE6FD561 3E93C807

3E857461 3D528E1D BE6FC45D BEF7EC04
BDA9472B 3C14DEB2 BEB33684 3D8EBED6
3E662233 BC906B2A BEABE956 3E93A0B5
3D34CD5A 3E5186B2 3EDEAE59 BB37E87A

BEDF3AAC BE76CD22 BE51B6E1 BE966733
3EFFCCC7 3EBA5462 3E5EA34F BE14BDE0
3E9FFE33 3E97EDC4 BEF6F89D BEA8AB59
BD0D9FF2 BEA6F790 3DB57A45 BEFB59B1

BE7F434F 3E734475 3EE203D3 3D5B2FAE
BEF4069C BDEBE0AD 3BA1EC54 BDB68201
BE70DE17 BE42A9B2 BD9DDF97 BE921634
BC8B4918 BEB465EE BEAD334E 3E72298C

BDB70E0B BE6101FB BDBC161E BEEC8655
3E4325CF BE90854E 3EFB922B BCAF1790
3E8AC5DA 3ED031AB BE197033 BE2040BE
BEB577A1 BEE9C650 3E988106 BE4AFDCB

BE1830F3 BE81AF26 3EF00975 3EF18E4D
3E40CF08 3E471F50 3C53BAF6 BE0A9E95
3E8FFC7B BD534343 3EAD11D4 BE456678
3E965CCB BD7C3BF9 3D0CFF96 BEC88D59

3EF1A22F BE66EDFC BEE41CE1 3DBA60BF
BEE28044 BE4DEDC5 3CAFA578 3E756FC9
3EBAB06F BE07B975 3ED5648B 3E00FB9F
3E20F96D 3EA3AF2C 3DC66A58 3DD9C442

BEBE73FE 3E8176F2 3EE01F9C 3EB60AF6
3E17DA35 BEDF5009 3EC0670F 3CC8364A
BE93C1C5 3E9E4C48 3E9EA6E5 3EF6576A
BE1B6B2B BE92DDA9 BD1ADEF5 3E8DE63D

BE9F1308 BE85BEA7 BE9F3404 BE1EC28F
BEC9EF94 3EDF28BE 3E6B7089 BC6B9122
BE8DA387 BE4AD2CB BE936E6D 37C72E67
3EC7AC4B 3ED0E566 BEDD248B BE821763

BEABDC94 BE5D27DC BE99FED5 3ECB2DDD
BED4FD49 3EC3CEA7 3DCFC77E 3EF75C63
BE3E670C BEEFD7ED 3EB5E195 BE839633
3EAAB207 3EC7CCCF BE930DAE BE81C773

3EC4A3CE 3E36FDAE 3DE9BBF3 BD8A2211
BE2D58FD 3D9D9E18 BCF91ADF 3E86991D
3E8C6333 BCCAF434 BE0A4B7C 3E30A8D1
3B7BDA8B 3E2D3AE5 BED91F8F 3ED63B27

3DE543BF 3DB67DB2 3EE3159C BEAA90C3
3E64AB17 3E85C9C9 BEF1AD6D BD9C51F2
BEAEB7D9 3EF204F7 BEB69ACD 3EF988DC
3C3CD1ED BE8F3F63 BE12C7E1 3E532948

3EDEB5F7 3EE027FF BEDC0483 3EDEDB07
BE4C121D BE5FB668 BE60D6B2 BEB5492F
3EFF6E98 3ED5F9C8 3E94F945 3E3697D5
BD9789A0 3D0808DC 3E7ED5DA BE0827C7

BE4A7A47 BEA5B071 BEA64902 BEC88F16
3EE80515 3E37A19B 3E348E01 3EC1BD91
BDC542C5 3E9E04CA BC593847 BE928D60
BE9348F6 3E8C6D48 BEF79418 3DE39349

BE1EE9BF BD237215 3ED7CDB3 3E5DA75A
BCE8395D 3E1BF666 3E08047C 3E62C129
BE96A104 3EFE73BC 3EC2AB5E BEAD651A
BE5E8689 BE58FAA1 3E0A35F6 BCDF4506

BEAABD00 3E84BEF1 BD976DAF 3CA5CED1
3E0677F7 BEC42726 3E542287 3EEAF031
BEFD7346 3E1BCDA4 BEFCD20B BBD24B9C
3EB97751 BEAF4488 BE7ABACE BC891D71

BE8CA8EE 3D1A5841 3EDB369E 3D295168
BD9E5774 3E544226 BE407525 3E4AB540
BE9B72D1 BE568ED7 3E08D656 3E60990A
3EDC18C9 BEE1FE72 BEA26F32 3D929E15

3DE23DCD 3EC7DFE0 BE4886DB 3EFA7868
3E1152B8 3E7EE6DE 3E3E1B45 BE4F0B6D
BEE62FD2 BE9E07F3 BCA59A87 3E5A9AEE
3DA88AB9 3EF9FED7 BE7CF20B 3DC1B546

3EDF0B56 BE3BF4FA 3E840B7E 3EF35729
3E3A737B BEA98A83 BEF75644 BE676A2B
BEADBB0E 3EED1662 3E81AEA3 3E225C55
3EE6A85F 3E8394E4 BCFA9A84 BEE28D0D

